{
  "version": "1.0",
  "truncation": null,
  "padding": null,
  "added_tokens": [
    {
      "id": 0,
      "content": "[UNK]",
      "single_word": false,
      "lstrip": false,
      "rstrip": false,
      "normalized": false,
      "special": true
    },
    {
      "id": 1,
      "content": "[PAD]",
      "single_word": false,
      "lstrip": false,
      "rstrip": false,
      "normalized": false,
      "special": true
    },
    {
      "id": 2,
      "content": "[EOS]",
      "single_word": false,
      "lstrip": false,
      "rstrip": false,
      "normalized": false,
      "special": true
    },
    {
      "id": 3,
      "content": "<|endoftext|>",
      "single_word": false,
      "lstrip": false,
      "rstrip": false,
      "normalized": false,
      "special": true
    }
  ],
  "normalizer": null,
  "pre_tokenizer": {
    "type": "ByteLevel",
    "add_prefix_space": false,
    "trim_offsets": true,
    "use_regex": true
  },
  "post_processor": {
    "type": "ByteLevel",
    "add_prefix_space": true,
    "trim_offsets": true,
    "use_regex": true
  },
  "decoder": {
    "type": "ByteLevel",
    "add_prefix_space": true,
    "trim_offsets": true,
    "use_regex": true
  },
  "model": {
    "type": "BPE",
    "dropout": null,
    "unk_token": "[UNK]",
    "continuing_subword_prefix": null,
    "end_of_word_suffix": null,
    "fuse_unk": false,
    "byte_fallback": false,
    "ignore_merges": false,
    "vocab": {
      "[UNK]": 0,
      "[PAD]": 1,
      "[EOS]": 2,
      "<|endoftext|>": 3,
      "!": 4,
      ",": 5,
      "-": 6,
      ".": 7,
      "0": 8,
      "1": 9,
      "2": 10,
      "3": 11,
      "4": 12,
      "5": 13,
      "6": 14,
      "7": 15,
      "8": 16,
      "9": 17,
      "A": 18,
      "B": 19,
      "C": 20,
      "D": 21,
      "E": 22,
      "F": 23,
      "G": 24,
      "H": 25,
      "I": 26,
      "J": 27,
      "K": 28,
      "L": 29,
      "M": 30,
      "N": 31,
      "O": 32,
      "P": 33,
      "Q": 34,
      "R": 35,
      "S": 36,
      "T": 37,
      "U": 38,
      "V": 39,
      "W": 40,
      "Y": 41,
      "a": 42,
      "b": 43,
      "c": 44,
      "d": 45,
      "e": 46,
      "f": 47,
      "g": 48,
      "h": 49,
      "i": 50,
      "j": 51,
      "k": 52,
      "l": 53,
      "m": 54,
      "n": 55,
      "o": 56,
      "p": 57,
      "q": 58,
      "r": 59,
      "s": 60,
      "t": 61,
      "u": 62,
      "v": 63,
      "w": 64,
      "x": 65,
      "y": 66,
      "z": 67,
      "Ċ": 68,
      "Ġ": 69,
      "Ġm": 70,
      "er": 71,
      "Ġs": 72,
      "re": 73,
      "on": 74,
      "in": 75,
      "en": 76,
      "al": 77,
      "Ġc": 78,
      "Ġp": 79,
      "Ġt": 80,
      "ar": 81,
      "or": 82,
      "at": 83,
      "it": 84,
      "ou": 85,
      "Ġa": 86,
      "Ġf": 87,
      "Ġw": 88,
      "Ġb": 89,
      "st": 90,
      "ce": 91,
      "an": 92,
      "le": 93,
      "ion": 94,
      "Ġd": 95,
      "Ġh": 96,
      "ent": 97,
      "Ġe": 98,
      "se": 99,
      "Ġre": 100,
      "ic": 101,
      "ro": 102,
      "ve": 103,
      "Ġ1": 104,
      "Ġ2": 105,
      "Ġ3": 106,
      "Ġ4": 107,
      "Ġ5": 108,
      "ct": 109,
      "ss": 110,
      "th": 111,
      "ge": 112,
      "Ġn": 113,
      "il": 114,
      "Ġl": 115,
      "Ġth": 116,
      "ing": 117,
      "Ġst": 118,
      "om": 119,
      "ly": 120,
      "gh": 121,
      "Ġg": 122,
      "ch": 123,
      "Ġo": 124,
      "ea": 125,
      "id": 126,
      "Ġin": 127,
      "im": 128,
      "ee": 129,
      "ff": 130,
      "ow": 131,
      "ol": 132,
      "ver": 133,
      "is": 134,
      "ul": 135,
      "ay": 136,
      "ec": 137,
      "ation": 138,
      "ĠS": 139,
      "ur": 140,
      "ain": 141,
      "ter": 142,
      "Ġ6": 143,
      "em": 144,
      "ity": 145,
      "Ġwh": 146,
      "ad": 147,
      "art": 148,
      "Ġpro": 149,
      "et": 150,
      "ir": 151,
      "Ġr": 152,
      "od": 153,
      "ate": 154,
      "un": 155,
      "el": 156,
      "ure": 157,
      "igh": 158,
      "ot": 159,
      "Ġle": 160,
      "am": 161,
      "ĠC": 162,
      "ice": 163,
      "Ġch": 164,
      "our": 165,
      "ĠA": 166,
      "ĠT": 167,
      "ut": 168,
      "age": 169,
      "ĠP": 170,
      "ue": 171,
      "ial": 172,
      "Ġtr": 173,
      "op": 174,
      "ight": 175,
      "ort": 176,
      "ig": 177,
      "ist": 178,
      "Ġde": 179,
      "ther": 180,
      "ard": 181,
      "us": 182,
      "ment": 183,
      "and": 184,
      "ive": 185,
      "one": 186,
      "ĠM": 187,
      "all": 188,
      "Ġsu": 189,
      "ear": 190,
      "Ġy": 191,
      "ill": 192,
      "oc": 193,
      "Ġbe": 194,
      "ine": 195,
      "oun": 196,
      "ough": 197,
      "sp": 198,
      "if": 199,
      "pp": 200,
      "ong": 201,
      "Ġex": 202,
      "Ġsp": 203,
      "ect": 204,
      "Ġcon": 205,
      "Ġan": 206,
      "ld": 207,
      "ĠR": 208,
      "ud": 209,
      "ose": 210,
      "ew": 211,
      "ind": 212,
      "per": 213,
      "sel": 214,
      "act": 215,
      "are": 216,
      "ome": 217,
      "ide": 218,
      "du": 219,
      "ence": 220,
      "Ġal": 221,
      "Ġsh": 222,
      "ke": 223,
      "ĠW": 224,
      "Ġag": 225,
      "est": 226,
      "la": 227,
      "ĠD": 228,
      "ant": 229,
      "ĠB": 230,
      "ĠF": 231,
      "Ġme": 232,
      "Ġen": 233,
      "ite": 234,
      "Ġper": 235,
      "self": 236,
      "der": 237,
      "ble": 238,
      "iz": 239,
      "ore": 240,
      "Ġv": 241,
      "ign": 242,
      "ult": 243,
      "ast": 244,
      "Ġpart": 245,
      "ree": 246,
      "ire": 247,
      "ction": 248,
      "mer": 249,
      "Ġcom": 250,
      "ĠE": 251,
      "Ġk": 252,
      "out": 253,
      "very": 254,
      "Ġpre": 255,
      "Ġfor": 256,
      "ach": 257,
      "imp": 258,
      "ĠI": 259,
      "Ġoff": 260,
      "Ġman": 261,
      "Ġthe": 262,
      "Ġbo": 263,
      "ace": 264,
      "ag": 265,
      "ory": 266,
      "au": 267,
      "Ġwor": 268,
      "ual": 269,
      "ould": 270,
      "ck": 271,
      "vel": 272,
      "Ġpo": 273,
      "thing": 274,
      "son": 275,
      "reat": 276,
      "ry": 277,
      "ith": 278,
      "cess": 279,
      "Ġad": 280,
      "ie": 281,
      "Ġmo": 282,
      "ell": 283,
      "tain": 284,
      "ish": 285,
      "ĠL": 286,
      "ĠH": 287,
      "end": 288,
      "ous": 289,
      "Ġq": 290,
      "ead": 291,
      "ĠO": 292,
      "Ġrec": 293,
      "Ġit": 294,
      "Ġpol": 295,
      "Ġha": 296,
      "Ġro": 297,
      "Ġevery": 298,
      "Ġreal": 299,
      "Ġinter": 300,
      "Ġar": 301,
      "Ġsome": 302,
      "Ġun": 303,
      "um": 304,
      "Ġon": 305,
      "Ġsc": 306,
      "Ġat": 307,
      "gy": 308,
      "ner": 309,
      "Ġfin": 310,
      "Ġev": 311,
      "Ġcol": 312,
      "orm": 313,
      "Ġgo": 314,
      "ri": 315,
      "uth": 316,
      "ical": 317,
      "ater": 318,
      "Ġpl": 319,
      "ild": 320,
      "ever": 321,
      "ular": 322,
      "as": 323,
      "ime": 324,
      "Ġser": 325,
      "ond": 326,
      "Ġdo": 327,
      "ere": 328,
      "ffer": 329,
      "rea": 330,
      "ound": 331,
      "ition": 332,
      "row": 333,
      "fe": 334,
      "Ġac": 335,
      "ize": 336,
      "bl": 337,
      "ody": 338,
      "aw": 339,
      "ame": 340,
      "form": 341,
      "get": 342,
      "ern": 343,
      "ssion": 344,
      "ust": 345,
      "ake": 346,
      "ip": 347,
      "ĠRe": 348,
      "ount": 349,
      "ber": 350,
      "di": 351,
      "lo": 352,
      "orn": 353,
      "ience": 354,
      "isc": 355,
      "ĠN": 356,
      "ious": 357,
      "nt": 358,
      "jo": 359,
      "ĠTh": 360,
      "up": 361,
      "Ġpartic": 362,
      "ĠSt": 363,
      "Ġcent": 364,
      "Ġart": 365,
      "Ġany": 366,
      "Ġor": 367,
      "Ġwith": 368,
      "Ġco": 369,
      "Ġinc": 370,
      "Ġimp": 371,
      "Ġdr": 372,
      "Ġab": 373,
      "Ġstr": 374,
      "Ġresp": 375,
      "Ġhe": 376,
      "Ġcomp": 377,
      "Ġnot": 378,
      "Ġatt": 379,
      "Ġbu": 380,
      "Ġsee": 381,
      "Ġapp": 382,
      "Ġnew": 383,
      "Ġdec": 384,
      "Ġtea": 385,
      "ord": 386,
      "Ġba": 387,
      "Ġdi": 388,
      "Ġact": 389,
      "Ġwr": 390,
      "Ġprodu": 391,
      "Ġdisc": 392,
      "ĠG": 393,
      "Ġto": 394,
      "Ġ7": 395,
      "Ġ8": 396,
      "Ġ9": 397,
      "10": 398,
      "11": 399,
      "12": 400,
      "13": 401,
      "14": 402,
      "15": 403,
      "16": 404,
      "17": 405,
      "18": 406,
      "19": 407,
      "20": 408,
      "21": 409,
      "22": 410,
      "23": 411,
      "24": 412,
      "25": 413,
      "26": 414,
      "27": 415,
      "28": 416,
      "29": 417,
      "30": 418,
      "31": 419,
      "32": 420,
      "33": 421,
      "34": 422,
      "35": 423,
      "36": 424,
      "37": 425,
      "38": 426,
      "39": 427,
      "40": 428,
      "41": 429,
      "42": 430,
      "43": 431,
      "44": 432,
      "45": 433,
      "46": 434,
      "47": 435,
      "48": 436,
      "49": 437,
      "50": 438,
      "51": 439,
      "52": 440,
      "53": 441,
      "54": 442,
      "55": 443,
      "56": 444,
      "57": 445,
      "58": 446,
      "59": 447,
      "60": 448,
      "61": 449,
      "62": 450,
      "63": 451,
      "Ġ0": 452,
      "Ġ10": 453,
      "Ġ11": 454,
      "Ġ12": 455,
      "Ġ13": 456,
      "Ġ14": 457,
      "Ġ15": 458,
      "Ġ16": 459,
      "Ġ17": 460,
      "Ġ18": 461,
      "Ġ19": 462,
      "Ġ20": 463,
      "Ġ21": 464,
      "Ġ22": 465,
      "Ġ23": 466,
      "Ġ24": 467,
      "Ġ25": 468,
      "Ġ26": 469,
      "Ġ27": 470,
      "Ġ28": 471,
      "Ġ29": 472,
      "Ġ30": 473,
      "Ġ31": 474,
      "Ġ32": 475,
      "Ġ33": 476,
      "Ġ34": 477,
      "Ġ35": 478,
      "Ġ36": 479,
      "Ġ37": 480,
      "Ġ38": 481,
      "Ġ39": 482,
      "Ġ40": 483,
      "Ġ41": 484,
      "Ġ42": 485,
      "Ġ43": 486,
      "Ġ44": 487,
      "Ġ45": 488,
      "Ġ46": 489,
      "Ġ47": 490,
      "Ġ48": 491,
      "Ġ49": 492,
      "Ġ50": 493,
      "Ġ51": 494,
      "Ġ52": 495,
      "Ġ53": 496,
      "Ġ54": 497,
      "Ġ55": 498,
      "Ġ56": 499,
      "Ġ57": 500,
      "Ġ58": 501,
      "Ġ59": 502,
      "Ġ60": 503,
      "Ġ61": 504,
      "Ġ62": 505,
      "Ġ63": 506,
      "Ġrel": 507,
      "ress": 508,
      "urn": 509,
      "ha": 510,
      "own": 511,
      "ick": 512,
      "arge": 513,
      "eel": 514,
      "ention": 515,
      "eed": 516,
      "be": 517,
      "atch": 518,
      "ance": 519,
      "ecial": 520,
      "ause": 521,
      "unity": 522,
      "ple": 523,
      "augh": 524,
      "ually": 525,
      "ile": 526,
      "ific": 527,
      "uthor": 528,
      "eet": 529,
      "ubl": 530,
      "ublic": 531,
      "side": 532,
      "vi": 533,
      "ertain": 534,
      "pport": 535,
      "ccess": 536,
      "oice": 537,
      "und": 538,
      "ich": 539,
      "ok": 540,
      "ull": 541,
      "con": 542,
      "ense": 543,
      "ital": 544,
      "conom": 545,
      "rat": 546,
      "outh": 547,
      "emoc": 548,
      "emocrat": 549,
      "sid": 550,
      "ty": 551,
      "lud": 552,
      "sent": 553,
      "atter": 554,
      "eep": 555,
      "ural": 556,
      "lass": 557,
      "aper": 558,
      "cial": 559,
      "vir": 560,
      "onment": 561,
      "vironment": 562,
      "aj": 563,
      "body": 564,
      "ank": 565,
      "ade": 566,
      "ajor": 567,
      "ange": 568,
      "ave": 569,
      "her": 570,
      "ring": 571,
      "ather": 572,
      "ĠIn": 573,
      "Th": 574,
      "ail": 575,
      "ility": 576,
      "ffect": 577,
      "ft": 578,
      "ene": 579,
      "ary": 580,
      "illion": 581,
      "able": 582,
      "rough": 583,
      "ark": 584,
      "ike": 585,
      "ational": 586,
      "iv": 587,
      "velop": 588,
      "ys": 589,
      "ise": 590,
      "way": 591,
      "etw": 592,
      "ĠMr": 593,
      "alk": 594,
      "ife": 595,
      "ember": 596,
      "arly": 597,
      "now": 598,
      "ctor": 599,
      "ision": 600,
      "ement": 601,
      "Ġqu": 602,
      "Ġoffic": 603,
      "dge": 604,
      "pt": 605,
      "ource": 606,
      "Ġexp": 607,
      "lection": 608,
      "Ġav": 609,
      "ject": 610,
      "Ġpop": 611,
      "ady": 612,
      "St": 613,
      "Ġim": 614,
      "Ġfeel": 615,
      "Ġcont": 616,
      "Ġgrow": 617,
      "Ġsm": 618,
      "Ġsuccess": 619,
      "Ġmanage": 620,
      "Ġparticular": 621,
      "Ġus": 622,
      "Ġmeet": 623,
      "Ġse": 624,
      "Ġmay": 625,
      "Ġwe": 626,
      "Ġdes": 627,
      "iss": 628,
      "Ġlo": 629,
      "Ġrecent": 630,
      "Ġsimp": 631,
      "Ġfact": 632,
      "Ġwho": 633,
      "Ġperson": 634,
      "Ġbuild": 635,
      "Ġall": 636,
      "Ġpolit": 637,
      "Ġrespon": 638,
      "Ġno": 639,
      "Ġnat": 640,
      "Ġow": 641,
      "Ġout": 642,
      "Ġsing": 643,
      "Ġenvironment": 644,
      "Ġsec": 645,
      "Ġas": 646,
      "ener": 647,
      "Ġam": 648,
      "Ġauthor": 649,
      "Ġnear": 650,
      "Ġcam": 651,
      "Ġprofe": 652,
      "Ġcare": 653,
      "Ġcertain": 654,
      "Ġlead": 655,
      "Ġmy": 656,
      "Ġmod": 657,
      "Ġeconom": 658,
      "Ġlist": 659,
      "Ġca": 660,
      "Ġne": 661,
      "Ġcomm": 662,
      "Ġeven": 663,
      "Ġjo": 664,
      "Ġthem": 665,
      "Ġhot": 666,
      "Ġinclud": 667,
      "Ġtreat": 668,
      "Ġperform": 669,
      "Ġadd": 670,
      "Ġso": 671,
      "Ġwind": 672,
      "Ġrep": 673,
      "Ġlike": 674,
      "Ġthrough": 675,
      "Ġcour": 676,
      "Ġdire": 677,
      "Ġother": 678,
      "Ġent": 679,
      "Ġhim": 680,
      "Ġinterest": 681,
      "Ġwest": 682,
      "Ġthough": 683,
      "Ġlet": 684,
      "Ġagain": 685,
      "Ġnor": 686,
      "Ġlaw": 687,
      "Ġmain": 688,
      "Ġbec": 689,
      "Ġgr": 690,
      "Ġmove": 691,
      "Ġteach": 692,
      "Ġmajor": 693,
      "Ġcult": 694,
      "Ġpr": 695,
      "Ġdiscu": 696,
      "to": 697,
      "Ġinst": 698,
      "Ġyour": 699,
      "Ġshould": 700,
      "Ġid": 701,
      "Ġsign": 702,
      "Ġph": 703,
      "Ġher": 704,
      "Ġrem": 705,
      "Ġknow": 706,
      "Ġstud": 707,
      "ĠWh": 708,
      "Ġup": 709,
      "Ġunder": 710,
      "Ġcar": 711,
      "Ġres": 712,
      "Ġind": 713,
      "Ġhapp": 714,
      "Ġhow": 715,
      "Ġsk": 716,
      "Ġsit": 717,
      "Ġcle": 718,
      "Ġfir": 719,
      "Ġwork": 720,
      "Ġexper": 721,
      "Ġadm": 722,
      "Ġstand": 723,
      "Ġdiffer": 724,
      "Ġte": 725,
      "Ġdevelop": 726,
      "mp": 727,
      "Ġsoc": 728,
      "Ġsea": 729,
      "es": 730,
      "Ġpos": 731,
      "Ġfinal": 732,
      "Ġacc": 733,
      "cc": 734,
      "Ġplay": 735,
      "Ġfo": 736,
      "ven": 737,
      "Re": 738,
      "ost": 739,
      "Ġgener": 740,
      "ove": 741,
      "ey": 742,
      "ont": 743,
      "ĠPro": 744,
      "ork": 745,
      "In": 746,
      "ffic": 747,
      "ack": 748,
      "ock": 749,
      "any": 750,
      "gree": 751,
      "over": 752,
      "uy": 753,
      "low": 754,
      "rom": 755,
      "ote": 756,
      "lack": 757,
      "ab": 758,
      "eek": 759,
      "uch": 760,
      "ecut": 761,
      "ecutive": 762,
      "dd": 763,
      "old": 764,
      "ĠRep": 765,
      "resent": 766,
      "pose": 767,
      "uff": 768,
      "oment": 769,
      "urpose": 770,
      "ix": 771,
      "og": 772,
      "uess": 773,
      "asy": 774,
      "band": 775,
      "lue": 776,
      "eaut": 777,
      "usband": 778,
      "iful": 779,
      "uality": 780,
      "eautiful": 781,
      "vent": 782,
      "vid": 783,
      "etter": 784,
      "ug": 785,
      "ickly": 786,
      "vy": 787,
      "rol": 788,
      "eavy": 789,
      "adition": 790,
      "aditional": 791,
      "pare": 792,
      "io": 793,
      "omet": 794,
      "adio": 795,
      "peration": 796,
      "imes": 797,
      "ometimes": 798,
      "eop": 799,
      "face": 800,
      "other": 801,
      "inue": 802,
      "icle": 803,
      "urface": 804,
      "eople": 805,
      "air": 806,
      "bility": 807,
      "onight": 808,
      "rove": 809,
      "otal": 810,
      "duce": 811,
      "aff": 812,
      "rive": 813,
      "outher": 814,
      "ecific": 815,
      "ongress": 816,
      "outhern": 817,
      "oid": 818,
      "az": 819,
      "emory": 820,
      "agaz": 821,
      "ssional": 822,
      "ipant": 823,
      "agazine": 824,
      "cy": 825,
      "pital": 826,
      "so": 827,
      "sure": 828,
      "inner": 829,
      "ency": 830,
      "easure": 831,
      "ep": 832,
      "fle": 833,
      "ancial": 834,
      "udience": 835,
      "ailable": 836,
      "flect": 837,
      "uct": 838,
      "era": 839,
      "ucture": 840,
      "gue": 841,
      "ible": 842,
      "ye": 843,
      "ouple": 844,
      "ssible": 845,
      "isk": 846,
      "ĠCh": 847,
      "ĠDemocrat": 848,
      "view": 849,
      "avel": 850,
      "ful": 851,
      "ĠY": 852,
      "icy": 853,
      "ssum": 854,
      "irl": 855,
      "usic": 856,
      "ssume": 857,
      "laim": 858,
      "nol": 859,
      "ogy": 860,
      "pe": 861,
      "su": 862,
      "ype": 863,
      "chnol": 864,
      "eah": 865,
      "eace": 866,
      "oung": 867,
      "agine": 868,
      "sumer": 869,
      "chnology": 870,
      "cation": 871,
      "ps": 872,
      "ouse": 873,
      "ssage": 874,
      "actly": 875,
      "arent": 876,
      "ducation": 877,
      "joy": 878,
      "haps": 879,
      "ublican": 880,
      "dical": 881,
      "ral": 882,
      "urity": 883,
      "uture": 884,
      "cri": 885,
      "lain": 886,
      "vice": 887,
      "wo": 888,
      "erm": 889,
      "usine": 890,
      "spite": 891,
      "ysical": 892,
      "cribe": 893,
      "usiness": 894,
      "sw": 895,
      "vol": 896,
      "gether": 897,
      "ulation": 898,
      "ccur": 899,
      "swer": 900,
      "volve": 901,
      "gu": 902,
      "ture": 903,
      "onth": 904,
      "inut": 905,
      "angu": 906,
      "icture": 907,
      "imal": 908,
      "isit": 909,
      "inute": 910,
      "anguage": 911,
      "ule": 912,
      "yst": 913,
      "entif": 914,
      "ics": 915,
      "ower": 916,
      "reak": 917,
      "ystem": 918,
      "entify": 919,
      "hind": 920,
      "most": 921,
      "ollow": 922,
      "ample": 923,
      "oney": 924,
      "perty": 925,
      "sider": 926,
      "ient": 927,
      "yee": 928,
      "ĠU": 929,
      "spaper": 930,
      "ies": 931,
      "loyee": 932,
      "ording": 933,
      "mployee": 934,
      "ientist": 935,
      "qu": 936,
      "reet": 937,
      "stry": 938,
      "ategy": 939,
      "ister": 940,
      "dustry": 941,
      "lace": 942,
      "umber": 943,
      "aterial": 944,
      "quire": 945,
      "ink": 946,
      "Ġblack": 947,
      "ssor": 948,
      "igure": 949,
      "ocal": 950,
      "special": 951,
      "ection": 952,
      "dia": 953,
      "specially": 954,
      "fer": 955,
      "onder": 956,
      "rother": 957,
      "Ġexecutive": 958,
      "ager": 959,
      "Ġworld": 960,
      "everal": 961,
      "rease": 962,
      "pportunity": 963,
      "sident": 964,
      "ference": 965,
      "gan": 966,
      "rime": 967,
      "aining": 968,
      "ortant": 969,
      "ization": 970,
      "orning": 971,
      "havi": 972,
      "ganization": 973,
      "havior": 974,
      "fore": 975,
      "iew": 976,
      "stment": 977,
      "ves": 978,
      "vestment": 979,
      "selves": 980,
      "ways": 981,
      "Ġofficial": 982,
      "fficult": 983,
      "ether": 984,
      "alf": 985,
      "itiz": 986,
      "elie": 987,
      "ope": 988,
      "actice": 989,
      "cessary": 990,
      "attern": 991,
      "ivil": 992,
      "itizen": 993,
      "elieve": 994,
      "gr": 995,
      "vie": 996,
      "ward": 997,
      "reen": 998,
      "alue": 999,
      "arious": 1000,
      "idate": 1001,
      "istory": 1002,
      "andidate": 1003,
      "ousand": 1004,
      "ificant": 1005,
      "ften": 1006,
      "gram": 1007,
      "aign": 1008,
      "bab": 1009,
      "cern": 1010,
      "paign": 1011,
      "int": 1012,
      "Ġcatch": 1013,
      "ata": 1014,
      "urch": 1015,
      "arden": 1016,
      "ush": 1017,
      "bably": 1018,
      "dle": 1019,
      "een": 1020,
      "fter": 1021,
      "ior": 1022,
      "Ġsix": 1023
    },
    "merges": [
      [
        "Ġ",
        "m"
      ],
      [
        "e",
        "r"
      ],
      [
        "Ġ",
        "s"
      ],
      [
        "r",
        "e"
      ],
      [
        "o",
        "n"
      ],
      [
        "i",
        "n"
      ],
      [
        "e",
        "n"
      ],
      [
        "a",
        "l"
      ],
      [
        "Ġ",
        "c"
      ],
      [
        "Ġ",
        "p"
      ],
      [
        "Ġ",
        "t"
      ],
      [
        "a",
        "r"
      ],
      [
        "o",
        "r"
      ],
      [
        "a",
        "t"
      ],
      [
        "i",
        "t"
      ],
      [
        "o",
        "u"
      ],
      [
        "Ġ",
        "a"
      ],
      [
        "Ġ",
        "f"
      ],
      [
        "Ġ",
        "w"
      ],
      [
        "Ġ",
        "b"
      ],
      [
        "s",
        "t"
      ],
      [
        "c",
        "e"
      ],
      [
        "a",
        "n"
      ],
      [
        "l",
        "e"
      ],
      [
        "i",
        "on"
      ],
      [
        "Ġ",
        "d"
      ],
      [
        "Ġ",
        "h"
      ],
      [
        "en",
        "t"
      ],
      [
        "Ġ",
        "e"
      ],
      [
        "s",
        "e"
      ],
      [
        "Ġ",
        "re"
      ],
      [
        "i",
        "c"
      ],
      [
        "r",
        "o"
      ],
      [
        "v",
        "e"
      ],
      [
        "Ġ",
        "1"
      ],
      [
        "Ġ",
        "2"
      ],
      [
        "Ġ",
        "3"
      ],
      [
        "Ġ",
        "4"
      ],
      [
        "Ġ",
        "5"
      ],
      [
        "c",
        "t"
      ],
      [
        "s",
        "s"
      ],
      [
        "t",
        "h"
      ],
      [
        "g",
        "e"
      ],
      [
        "Ġ",
        "n"
      ],
      [
        "i",
        "l"
      ],
      [
        "Ġ",
        "l"
      ],
      [
        "Ġt",
        "h"
      ],
      [
        "in",
        "g"
      ],
      [
        "Ġs",
        "t"
      ],
      [
        "o",
        "m"
      ],
      [
        "l",
        "y"
      ],
      [
        "g",
        "h"
      ],
      [
        "Ġ",
        "g"
      ],
      [
        "c",
        "h"
      ],
      [
        "Ġ",
        "o"
      ],
      [
        "e",
        "a"
      ],
      [
        "i",
        "d"
      ],
      [
        "Ġ",
        "in"
      ],
      [
        "i",
        "m"
      ],
      [
        "e",
        "e"
      ],
      [
        "f",
        "f"
      ],
      [
        "o",
        "w"
      ],
      [
        "o",
        "l"
      ],
      [
        "v",
        "er"
      ],
      [
        "i",
        "s"
      ],
      [
        "u",
        "l"
      ],
      [
        "a",
        "y"
      ],
      [
        "e",
        "c"
      ],
      [
        "at",
        "ion"
      ],
      [
        "Ġ",
        "S"
      ],
      [
        "u",
        "r"
      ],
      [
        "a",
        "in"
      ],
      [
        "t",
        "er"
      ],
      [
        "Ġ",
        "6"
      ],
      [
        "e",
        "m"
      ],
      [
        "it",
        "y"
      ],
      [
        "Ġw",
        "h"
      ],
      [
        "a",
        "d"
      ],
      [
        "ar",
        "t"
      ],
      [
        "Ġp",
        "ro"
      ],
      [
        "e",
        "t"
      ],
      [
        "i",
        "r"
      ],
      [
        "Ġ",
        "r"
      ],
      [
        "o",
        "d"
      ],
      [
        "at",
        "e"
      ],
      [
        "u",
        "n"
      ],
      [
        "e",
        "l"
      ],
      [
        "u",
        "re"
      ],
      [
        "i",
        "gh"
      ],
      [
        "o",
        "t"
      ],
      [
        "Ġ",
        "le"
      ],
      [
        "a",
        "m"
      ],
      [
        "Ġ",
        "C"
      ],
      [
        "i",
        "ce"
      ],
      [
        "Ġc",
        "h"
      ],
      [
        "ou",
        "r"
      ],
      [
        "Ġ",
        "A"
      ],
      [
        "Ġ",
        "T"
      ],
      [
        "u",
        "t"
      ],
      [
        "a",
        "ge"
      ],
      [
        "Ġ",
        "P"
      ],
      [
        "u",
        "e"
      ],
      [
        "i",
        "al"
      ],
      [
        "Ġt",
        "r"
      ],
      [
        "o",
        "p"
      ],
      [
        "igh",
        "t"
      ],
      [
        "or",
        "t"
      ],
      [
        "i",
        "g"
      ],
      [
        "i",
        "st"
      ],
      [
        "Ġd",
        "e"
      ],
      [
        "th",
        "er"
      ],
      [
        "ar",
        "d"
      ],
      [
        "u",
        "s"
      ],
      [
        "m",
        "ent"
      ],
      [
        "an",
        "d"
      ],
      [
        "i",
        "ve"
      ],
      [
        "on",
        "e"
      ],
      [
        "Ġ",
        "M"
      ],
      [
        "al",
        "l"
      ],
      [
        "Ġs",
        "u"
      ],
      [
        "e",
        "ar"
      ],
      [
        "Ġ",
        "y"
      ],
      [
        "il",
        "l"
      ],
      [
        "o",
        "c"
      ],
      [
        "Ġb",
        "e"
      ],
      [
        "in",
        "e"
      ],
      [
        "ou",
        "n"
      ],
      [
        "ou",
        "gh"
      ],
      [
        "s",
        "p"
      ],
      [
        "i",
        "f"
      ],
      [
        "p",
        "p"
      ],
      [
        "on",
        "g"
      ],
      [
        "Ġe",
        "x"
      ],
      [
        "Ġs",
        "p"
      ],
      [
        "e",
        "ct"
      ],
      [
        "Ġc",
        "on"
      ],
      [
        "Ġa",
        "n"
      ],
      [
        "l",
        "d"
      ],
      [
        "Ġ",
        "R"
      ],
      [
        "u",
        "d"
      ],
      [
        "o",
        "se"
      ],
      [
        "e",
        "w"
      ],
      [
        "in",
        "d"
      ],
      [
        "p",
        "er"
      ],
      [
        "se",
        "l"
      ],
      [
        "a",
        "ct"
      ],
      [
        "a",
        "re"
      ],
      [
        "om",
        "e"
      ],
      [
        "id",
        "e"
      ],
      [
        "d",
        "u"
      ],
      [
        "en",
        "ce"
      ],
      [
        "Ġ",
        "al"
      ],
      [
        "Ġs",
        "h"
      ],
      [
        "k",
        "e"
      ],
      [
        "Ġ",
        "W"
      ],
      [
        "Ġa",
        "g"
      ],
      [
        "e",
        "st"
      ],
      [
        "l",
        "a"
      ],
      [
        "Ġ",
        "D"
      ],
      [
        "an",
        "t"
      ],
      [
        "Ġ",
        "B"
      ],
      [
        "Ġ",
        "F"
      ],
      [
        "Ġm",
        "e"
      ],
      [
        "Ġ",
        "en"
      ],
      [
        "it",
        "e"
      ],
      [
        "Ġp",
        "er"
      ],
      [
        "sel",
        "f"
      ],
      [
        "d",
        "er"
      ],
      [
        "b",
        "le"
      ],
      [
        "i",
        "z"
      ],
      [
        "o",
        "re"
      ],
      [
        "Ġ",
        "v"
      ],
      [
        "ig",
        "n"
      ],
      [
        "ul",
        "t"
      ],
      [
        "a",
        "st"
      ],
      [
        "Ġp",
        "art"
      ],
      [
        "re",
        "e"
      ],
      [
        "i",
        "re"
      ],
      [
        "ct",
        "ion"
      ],
      [
        "m",
        "er"
      ],
      [
        "Ġc",
        "om"
      ],
      [
        "Ġ",
        "E"
      ],
      [
        "Ġ",
        "k"
      ],
      [
        "ou",
        "t"
      ],
      [
        "ver",
        "y"
      ],
      [
        "Ġp",
        "re"
      ],
      [
        "Ġf",
        "or"
      ],
      [
        "a",
        "ch"
      ],
      [
        "im",
        "p"
      ],
      [
        "Ġ",
        "I"
      ],
      [
        "Ġo",
        "ff"
      ],
      [
        "Ġm",
        "an"
      ],
      [
        "Ġth",
        "e"
      ],
      [
        "Ġb",
        "o"
      ],
      [
        "a",
        "ce"
      ],
      [
        "a",
        "g"
      ],
      [
        "or",
        "y"
      ],
      [
        "a",
        "u"
      ],
      [
        "Ġw",
        "or"
      ],
      [
        "u",
        "al"
      ],
      [
        "ou",
        "ld"
      ],
      [
        "c",
        "k"
      ],
      [
        "ve",
        "l"
      ],
      [
        "Ġp",
        "o"
      ],
      [
        "th",
        "ing"
      ],
      [
        "s",
        "on"
      ],
      [
        "re",
        "at"
      ],
      [
        "r",
        "y"
      ],
      [
        "it",
        "h"
      ],
      [
        "ce",
        "ss"
      ],
      [
        "Ġa",
        "d"
      ],
      [
        "i",
        "e"
      ],
      [
        "Ġm",
        "o"
      ],
      [
        "el",
        "l"
      ],
      [
        "t",
        "ain"
      ],
      [
        "is",
        "h"
      ],
      [
        "Ġ",
        "L"
      ],
      [
        "Ġ",
        "H"
      ],
      [
        "en",
        "d"
      ],
      [
        "ou",
        "s"
      ],
      [
        "Ġ",
        "q"
      ],
      [
        "ea",
        "d"
      ],
      [
        "Ġ",
        "O"
      ],
      [
        "Ġre",
        "c"
      ],
      [
        "Ġ",
        "it"
      ],
      [
        "Ġp",
        "ol"
      ],
      [
        "Ġh",
        "a"
      ],
      [
        "Ġ",
        "ro"
      ],
      [
        "Ġe",
        "very"
      ],
      [
        "Ġre",
        "al"
      ],
      [
        "Ġin",
        "ter"
      ],
      [
        "Ġ",
        "ar"
      ],
      [
        "Ġs",
        "ome"
      ],
      [
        "Ġ",
        "un"
      ],
      [
        "u",
        "m"
      ],
      [
        "Ġ",
        "on"
      ],
      [
        "Ġs",
        "c"
      ],
      [
        "Ġ",
        "at"
      ],
      [
        "g",
        "y"
      ],
      [
        "n",
        "er"
      ],
      [
        "Ġf",
        "in"
      ],
      [
        "Ġe",
        "v"
      ],
      [
        "Ġc",
        "ol"
      ],
      [
        "or",
        "m"
      ],
      [
        "Ġg",
        "o"
      ],
      [
        "r",
        "i"
      ],
      [
        "u",
        "th"
      ],
      [
        "ic",
        "al"
      ],
      [
        "at",
        "er"
      ],
      [
        "Ġp",
        "l"
      ],
      [
        "il",
        "d"
      ],
      [
        "e",
        "ver"
      ],
      [
        "ul",
        "ar"
      ],
      [
        "a",
        "s"
      ],
      [
        "im",
        "e"
      ],
      [
        "Ġs",
        "er"
      ],
      [
        "on",
        "d"
      ],
      [
        "Ġd",
        "o"
      ],
      [
        "er",
        "e"
      ],
      [
        "ff",
        "er"
      ],
      [
        "re",
        "a"
      ],
      [
        "oun",
        "d"
      ],
      [
        "it",
        "ion"
      ],
      [
        "ro",
        "w"
      ],
      [
        "f",
        "e"
      ],
      [
        "Ġa",
        "c"
      ],
      [
        "iz",
        "e"
      ],
      [
        "b",
        "l"
      ],
      [
        "od",
        "y"
      ],
      [
        "a",
        "w"
      ],
      [
        "am",
        "e"
      ],
      [
        "f",
        "orm"
      ],
      [
        "ge",
        "t"
      ],
      [
        "er",
        "n"
      ],
      [
        "ss",
        "ion"
      ],
      [
        "u",
        "st"
      ],
      [
        "a",
        "ke"
      ],
      [
        "i",
        "p"
      ],
      [
        "ĠR",
        "e"
      ],
      [
        "oun",
        "t"
      ],
      [
        "b",
        "er"
      ],
      [
        "d",
        "i"
      ],
      [
        "l",
        "o"
      ],
      [
        "or",
        "n"
      ],
      [
        "i",
        "ence"
      ],
      [
        "is",
        "c"
      ],
      [
        "Ġ",
        "N"
      ],
      [
        "i",
        "ous"
      ],
      [
        "n",
        "t"
      ],
      [
        "j",
        "o"
      ],
      [
        "ĠT",
        "h"
      ],
      [
        "u",
        "p"
      ],
      [
        "Ġpart",
        "ic"
      ],
      [
        "ĠS",
        "t"
      ],
      [
        "Ġc",
        "ent"
      ],
      [
        "Ġ",
        "art"
      ],
      [
        "Ġan",
        "y"
      ],
      [
        "Ġ",
        "or"
      ],
      [
        "Ġw",
        "ith"
      ],
      [
        "Ġc",
        "o"
      ],
      [
        "Ġin",
        "c"
      ],
      [
        "Ġ",
        "imp"
      ],
      [
        "Ġd",
        "r"
      ],
      [
        "Ġa",
        "b"
      ],
      [
        "Ġst",
        "r"
      ],
      [
        "Ġre",
        "sp"
      ],
      [
        "Ġh",
        "e"
      ],
      [
        "Ġcom",
        "p"
      ],
      [
        "Ġn",
        "ot"
      ],
      [
        "Ġat",
        "t"
      ],
      [
        "Ġb",
        "u"
      ],
      [
        "Ġs",
        "ee"
      ],
      [
        "Ġa",
        "pp"
      ],
      [
        "Ġn",
        "ew"
      ],
      [
        "Ġd",
        "ec"
      ],
      [
        "Ġt",
        "ea"
      ],
      [
        "or",
        "d"
      ],
      [
        "Ġb",
        "a"
      ],
      [
        "Ġd",
        "i"
      ],
      [
        "Ġa",
        "ct"
      ],
      [
        "Ġw",
        "r"
      ],
      [
        "Ġpro",
        "du"
      ],
      [
        "Ġd",
        "isc"
      ],
      [
        "Ġ",
        "G"
      ],
      [
        "Ġt",
        "o"
      ],
      [
        "Ġ",
        "7"
      ],
      [
        "Ġ",
        "8"
      ],
      [
        "Ġ",
        "9"
      ],
      [
        "1",
        "0"
      ],
      [
        "1",
        "1"
      ],
      [
        "1",
        "2"
      ],
      [
        "1",
        "3"
      ],
      [
        "1",
        "4"
      ],
      [
        "1",
        "5"
      ],
      [
        "1",
        "6"
      ],
      [
        "1",
        "7"
      ],
      [
        "1",
        "8"
      ],
      [
        "1",
        "9"
      ],
      [
        "2",
        "0"
      ],
      [
        "2",
        "1"
      ],
      [
        "2",
        "2"
      ],
      [
        "2",
        "3"
      ],
      [
        "2",
        "4"
      ],
      [
        "2",
        "5"
      ],
      [
        "2",
        "6"
      ],
      [
        "2",
        "7"
      ],
      [
        "2",
        "8"
      ],
      [
        "2",
        "9"
      ],
      [
        "3",
        "0"
      ],
      [
        "3",
        "1"
      ],
      [
        "3",
        "2"
      ],
      [
        "3",
        "3"
      ],
      [
        "3",
        "4"
      ],
      [
        "3",
        "5"
      ],
      [
        "3",
        "6"
      ],
      [
        "3",
        "7"
      ],
      [
        "3",
        "8"
      ],
      [
        "3",
        "9"
      ],
      [
        "4",
        "0"
      ],
      [
        "4",
        "1"
      ],
      [
        "4",
        "2"
      ],
      [
        "4",
        "3"
      ],
      [
        "4",
        "4"
      ],
      [
        "4",
        "5"
      ],
      [
        "4",
        "6"
      ],
      [
        "4",
        "7"
      ],
      [
        "4",
        "8"
      ],
      [
        "4",
        "9"
      ],
      [
        "5",
        "0"
      ],
      [
        "5",
        "1"
      ],
      [
        "5",
        "2"
      ],
      [
        "5",
        "3"
      ],
      [
        "5",
        "4"
      ],
      [
        "5",
        "5"
      ],
      [
        "5",
        "6"
      ],
      [
        "5",
        "7"
      ],
      [
        "5",
        "8"
      ],
      [
        "5",
        "9"
      ],
      [
        "6",
        "0"
      ],
      [
        "6",
        "1"
      ],
      [
        "6",
        "2"
      ],
      [
        "6",
        "3"
      ],
      [
        "Ġ",
        "0"
      ],
      [
        "Ġ1",
        "0"
      ],
      [
        "Ġ1",
        "1"
      ],
      [
        "Ġ1",
        "2"
      ],
      [
        "Ġ1",
        "3"
      ],
      [
        "Ġ1",
        "4"
      ],
      [
        "Ġ1",
        "5"
      ],
      [
        "Ġ1",
        "6"
      ],
      [
        "Ġ1",
        "7"
      ],
      [
        "Ġ1",
        "8"
      ],
      [
        "Ġ1",
        "9"
      ],
      [
        "Ġ2",
        "0"
      ],
      [
        "Ġ2",
        "1"
      ],
      [
        "Ġ2",
        "2"
      ],
      [
        "Ġ2",
        "3"
      ],
      [
        "Ġ2",
        "4"
      ],
      [
        "Ġ2",
        "5"
      ],
      [
        "Ġ2",
        "6"
      ],
      [
        "Ġ2",
        "7"
      ],
      [
        "Ġ2",
        "8"
      ],
      [
        "Ġ2",
        "9"
      ],
      [
        "Ġ3",
        "0"
      ],
      [
        "Ġ3",
        "1"
      ],
      [
        "Ġ3",
        "2"
      ],
      [
        "Ġ3",
        "3"
      ],
      [
        "Ġ3",
        "4"
      ],
      [
        "Ġ3",
        "5"
      ],
      [
        "Ġ3",
        "6"
      ],
      [
        "Ġ3",
        "7"
      ],
      [
        "Ġ3",
        "8"
      ],
      [
        "Ġ3",
        "9"
      ],
      [
        "Ġ4",
        "0"
      ],
      [
        "Ġ4",
        "1"
      ],
      [
        "Ġ4",
        "2"
      ],
      [
        "Ġ4",
        "3"
      ],
      [
        "Ġ4",
        "4"
      ],
      [
        "Ġ4",
        "5"
      ],
      [
        "Ġ4",
        "6"
      ],
      [
        "Ġ4",
        "7"
      ],
      [
        "Ġ4",
        "8"
      ],
      [
        "Ġ4",
        "9"
      ],
      [
        "Ġ5",
        "0"
      ],
      [
        "Ġ5",
        "1"
      ],
      [
        "Ġ5",
        "2"
      ],
      [
        "Ġ5",
        "3"
      ],
      [
        "Ġ5",
        "4"
      ],
      [
        "Ġ5",
        "5"
      ],
      [
        "Ġ5",
        "6"
      ],
      [
        "Ġ5",
        "7"
      ],
      [
        "Ġ5",
        "8"
      ],
      [
        "Ġ5",
        "9"
      ],
      [
        "Ġ6",
        "0"
      ],
      [
        "Ġ6",
        "1"
      ],
      [
        "Ġ6",
        "2"
      ],
      [
        "Ġ6",
        "3"
      ],
      [
        "Ġre",
        "l"
      ],
      [
        "re",
        "ss"
      ],
      [
        "ur",
        "n"
      ],
      [
        "h",
        "a"
      ],
      [
        "ow",
        "n"
      ],
      [
        "ic",
        "k"
      ],
      [
        "ar",
        "ge"
      ],
      [
        "ee",
        "l"
      ],
      [
        "ent",
        "ion"
      ],
      [
        "ee",
        "d"
      ],
      [
        "b",
        "e"
      ],
      [
        "at",
        "ch"
      ],
      [
        "an",
        "ce"
      ],
      [
        "ec",
        "ial"
      ],
      [
        "au",
        "se"
      ],
      [
        "un",
        "ity"
      ],
      [
        "p",
        "le"
      ],
      [
        "au",
        "gh"
      ],
      [
        "ual",
        "ly"
      ],
      [
        "i",
        "le"
      ],
      [
        "if",
        "ic"
      ],
      [
        "uth",
        "or"
      ],
      [
        "ee",
        "t"
      ],
      [
        "u",
        "bl"
      ],
      [
        "ubl",
        "ic"
      ],
      [
        "s",
        "ide"
      ],
      [
        "v",
        "i"
      ],
      [
        "er",
        "tain"
      ],
      [
        "pp",
        "ort"
      ],
      [
        "c",
        "cess"
      ],
      [
        "o",
        "ice"
      ],
      [
        "un",
        "d"
      ],
      [
        "ic",
        "h"
      ],
      [
        "o",
        "k"
      ],
      [
        "ul",
        "l"
      ],
      [
        "c",
        "on"
      ],
      [
        "en",
        "se"
      ],
      [
        "it",
        "al"
      ],
      [
        "con",
        "om"
      ],
      [
        "r",
        "at"
      ],
      [
        "ou",
        "th"
      ],
      [
        "em",
        "oc"
      ],
      [
        "emoc",
        "rat"
      ],
      [
        "s",
        "id"
      ],
      [
        "t",
        "y"
      ],
      [
        "l",
        "ud"
      ],
      [
        "s",
        "ent"
      ],
      [
        "at",
        "ter"
      ],
      [
        "ee",
        "p"
      ],
      [
        "ur",
        "al"
      ],
      [
        "la",
        "ss"
      ],
      [
        "a",
        "per"
      ],
      [
        "c",
        "ial"
      ],
      [
        "v",
        "ir"
      ],
      [
        "on",
        "ment"
      ],
      [
        "vir",
        "onment"
      ],
      [
        "a",
        "j"
      ],
      [
        "b",
        "ody"
      ],
      [
        "an",
        "k"
      ],
      [
        "ad",
        "e"
      ],
      [
        "aj",
        "or"
      ],
      [
        "an",
        "ge"
      ],
      [
        "a",
        "ve"
      ],
      [
        "h",
        "er"
      ],
      [
        "r",
        "ing"
      ],
      [
        "at",
        "her"
      ],
      [
        "ĠI",
        "n"
      ],
      [
        "T",
        "h"
      ],
      [
        "a",
        "il"
      ],
      [
        "il",
        "ity"
      ],
      [
        "ff",
        "ect"
      ],
      [
        "f",
        "t"
      ],
      [
        "en",
        "e"
      ],
      [
        "ar",
        "y"
      ],
      [
        "ill",
        "ion"
      ],
      [
        "a",
        "ble"
      ],
      [
        "r",
        "ough"
      ],
      [
        "ar",
        "k"
      ],
      [
        "i",
        "ke"
      ],
      [
        "ation",
        "al"
      ],
      [
        "i",
        "v"
      ],
      [
        "vel",
        "op"
      ],
      [
        "y",
        "s"
      ],
      [
        "i",
        "se"
      ],
      [
        "w",
        "ay"
      ],
      [
        "et",
        "w"
      ],
      [
        "ĠM",
        "r"
      ],
      [
        "al",
        "k"
      ],
      [
        "if",
        "e"
      ],
      [
        "em",
        "ber"
      ],
      [
        "ar",
        "ly"
      ],
      [
        "n",
        "ow"
      ],
      [
        "ct",
        "or"
      ],
      [
        "is",
        "ion"
      ],
      [
        "em",
        "ent"
      ],
      [
        "Ġq",
        "u"
      ],
      [
        "Ġoff",
        "ic"
      ],
      [
        "d",
        "ge"
      ],
      [
        "p",
        "t"
      ],
      [
        "our",
        "ce"
      ],
      [
        "Ġex",
        "p"
      ],
      [
        "le",
        "ction"
      ],
      [
        "Ġa",
        "v"
      ],
      [
        "j",
        "ect"
      ],
      [
        "Ġp",
        "op"
      ],
      [
        "ad",
        "y"
      ],
      [
        "S",
        "t"
      ],
      [
        "Ġ",
        "im"
      ],
      [
        "Ġf",
        "eel"
      ],
      [
        "Ġcon",
        "t"
      ],
      [
        "Ġg",
        "row"
      ],
      [
        "Ġs",
        "m"
      ],
      [
        "Ġsu",
        "ccess"
      ],
      [
        "Ġman",
        "age"
      ],
      [
        "Ġpartic",
        "ular"
      ],
      [
        "Ġ",
        "us"
      ],
      [
        "Ġm",
        "eet"
      ],
      [
        "Ġs",
        "e"
      ],
      [
        "Ġm",
        "ay"
      ],
      [
        "Ġw",
        "e"
      ],
      [
        "Ġde",
        "s"
      ],
      [
        "i",
        "ss"
      ],
      [
        "Ġl",
        "o"
      ],
      [
        "Ġrec",
        "ent"
      ],
      [
        "Ġs",
        "imp"
      ],
      [
        "Ġf",
        "act"
      ],
      [
        "Ġwh",
        "o"
      ],
      [
        "Ġper",
        "son"
      ],
      [
        "Ġbu",
        "ild"
      ],
      [
        "Ġ",
        "all"
      ],
      [
        "Ġpol",
        "it"
      ],
      [
        "Ġresp",
        "on"
      ],
      [
        "Ġn",
        "o"
      ],
      [
        "Ġn",
        "at"
      ],
      [
        "Ġo",
        "w"
      ],
      [
        "Ġ",
        "out"
      ],
      [
        "Ġs",
        "ing"
      ],
      [
        "Ġen",
        "vironment"
      ],
      [
        "Ġs",
        "ec"
      ],
      [
        "Ġa",
        "s"
      ],
      [
        "en",
        "er"
      ],
      [
        "Ġa",
        "m"
      ],
      [
        "Ġa",
        "uthor"
      ],
      [
        "Ġn",
        "ear"
      ],
      [
        "Ġc",
        "am"
      ],
      [
        "Ġpro",
        "fe"
      ],
      [
        "Ġc",
        "are"
      ],
      [
        "Ġc",
        "ertain"
      ],
      [
        "Ġle",
        "ad"
      ],
      [
        "Ġm",
        "y"
      ],
      [
        "Ġm",
        "od"
      ],
      [
        "Ġe",
        "conom"
      ],
      [
        "Ġl",
        "ist"
      ],
      [
        "Ġc",
        "a"
      ],
      [
        "Ġn",
        "e"
      ],
      [
        "Ġcom",
        "m"
      ],
      [
        "Ġev",
        "en"
      ],
      [
        "Ġ",
        "jo"
      ],
      [
        "Ġth",
        "em"
      ],
      [
        "Ġh",
        "ot"
      ],
      [
        "Ġinc",
        "lud"
      ],
      [
        "Ġt",
        "reat"
      ],
      [
        "Ġper",
        "form"
      ],
      [
        "Ġad",
        "d"
      ],
      [
        "Ġs",
        "o"
      ],
      [
        "Ġw",
        "ind"
      ],
      [
        "Ġre",
        "p"
      ],
      [
        "Ġl",
        "ike"
      ],
      [
        "Ġth",
        "rough"
      ],
      [
        "Ġc",
        "our"
      ],
      [
        "Ġd",
        "ire"
      ],
      [
        "Ġo",
        "ther"
      ],
      [
        "Ġ",
        "ent"
      ],
      [
        "Ġh",
        "im"
      ],
      [
        "Ġinter",
        "est"
      ],
      [
        "Ġw",
        "est"
      ],
      [
        "Ġth",
        "ough"
      ],
      [
        "Ġle",
        "t"
      ],
      [
        "Ġag",
        "ain"
      ],
      [
        "Ġn",
        "or"
      ],
      [
        "Ġl",
        "aw"
      ],
      [
        "Ġm",
        "ain"
      ],
      [
        "Ġb",
        "ec"
      ],
      [
        "Ġg",
        "r"
      ],
      [
        "Ġmo",
        "ve"
      ],
      [
        "Ġtea",
        "ch"
      ],
      [
        "Ġm",
        "ajor"
      ],
      [
        "Ġc",
        "ult"
      ],
      [
        "Ġp",
        "r"
      ],
      [
        "Ġdisc",
        "u"
      ],
      [
        "t",
        "o"
      ],
      [
        "Ġin",
        "st"
      ],
      [
        "Ġy",
        "our"
      ],
      [
        "Ġsh",
        "ould"
      ],
      [
        "Ġ",
        "id"
      ],
      [
        "Ġs",
        "ign"
      ],
      [
        "Ġp",
        "h"
      ],
      [
        "Ġh",
        "er"
      ],
      [
        "Ġre",
        "m"
      ],
      [
        "Ġk",
        "now"
      ],
      [
        "Ġst",
        "ud"
      ],
      [
        "ĠW",
        "h"
      ],
      [
        "Ġ",
        "up"
      ],
      [
        "Ġun",
        "der"
      ],
      [
        "Ġc",
        "ar"
      ],
      [
        "Ġre",
        "s"
      ],
      [
        "Ġin",
        "d"
      ],
      [
        "Ġha",
        "pp"
      ],
      [
        "Ġh",
        "ow"
      ],
      [
        "Ġs",
        "k"
      ],
      [
        "Ġs",
        "it"
      ],
      [
        "Ġc",
        "le"
      ],
      [
        "Ġf",
        "ir"
      ],
      [
        "Ġwor",
        "k"
      ],
      [
        "Ġex",
        "per"
      ],
      [
        "Ġad",
        "m"
      ],
      [
        "Ġst",
        "and"
      ],
      [
        "Ġdi",
        "ffer"
      ],
      [
        "Ġt",
        "e"
      ],
      [
        "Ġde",
        "velop"
      ],
      [
        "m",
        "p"
      ],
      [
        "Ġs",
        "oc"
      ],
      [
        "Ġs",
        "ea"
      ],
      [
        "e",
        "s"
      ],
      [
        "Ġpo",
        "s"
      ],
      [
        "Ġfin",
        "al"
      ],
      [
        "Ġac",
        "c"
      ],
      [
        "c",
        "c"
      ],
      [
        "Ġpl",
        "ay"
      ],
      [
        "Ġf",
        "o"
      ],
      [
        "v",
        "en"
      ],
      [
        "R",
        "e"
      ],
      [
        "o",
        "st"
      ],
      [
        "Ġg",
        "ener"
      ],
      [
        "o",
        "ve"
      ],
      [
        "e",
        "y"
      ],
      [
        "on",
        "t"
      ],
      [
        "ĠP",
        "ro"
      ],
      [
        "or",
        "k"
      ],
      [
        "I",
        "n"
      ],
      [
        "ff",
        "ic"
      ],
      [
        "a",
        "ck"
      ],
      [
        "oc",
        "k"
      ],
      [
        "an",
        "y"
      ],
      [
        "g",
        "ree"
      ],
      [
        "o",
        "ver"
      ],
      [
        "u",
        "y"
      ],
      [
        "l",
        "ow"
      ],
      [
        "ro",
        "m"
      ],
      [
        "ot",
        "e"
      ],
      [
        "la",
        "ck"
      ],
      [
        "a",
        "b"
      ],
      [
        "ee",
        "k"
      ],
      [
        "u",
        "ch"
      ],
      [
        "ec",
        "ut"
      ],
      [
        "ecut",
        "ive"
      ],
      [
        "d",
        "d"
      ],
      [
        "ol",
        "d"
      ],
      [
        "ĠRe",
        "p"
      ],
      [
        "re",
        "sent"
      ],
      [
        "p",
        "ose"
      ],
      [
        "u",
        "ff"
      ],
      [
        "om",
        "ent"
      ],
      [
        "ur",
        "pose"
      ],
      [
        "i",
        "x"
      ],
      [
        "o",
        "g"
      ],
      [
        "ue",
        "ss"
      ],
      [
        "as",
        "y"
      ],
      [
        "b",
        "and"
      ],
      [
        "l",
        "ue"
      ],
      [
        "ea",
        "ut"
      ],
      [
        "us",
        "band"
      ],
      [
        "if",
        "ul"
      ],
      [
        "ual",
        "ity"
      ],
      [
        "eaut",
        "iful"
      ],
      [
        "v",
        "ent"
      ],
      [
        "v",
        "id"
      ],
      [
        "et",
        "ter"
      ],
      [
        "u",
        "g"
      ],
      [
        "ick",
        "ly"
      ],
      [
        "v",
        "y"
      ],
      [
        "ro",
        "l"
      ],
      [
        "ea",
        "vy"
      ],
      [
        "ad",
        "ition"
      ],
      [
        "adition",
        "al"
      ],
      [
        "p",
        "are"
      ],
      [
        "i",
        "o"
      ],
      [
        "om",
        "et"
      ],
      [
        "ad",
        "io"
      ],
      [
        "per",
        "ation"
      ],
      [
        "ime",
        "s"
      ],
      [
        "omet",
        "imes"
      ],
      [
        "e",
        "op"
      ],
      [
        "f",
        "ace"
      ],
      [
        "o",
        "ther"
      ],
      [
        "in",
        "ue"
      ],
      [
        "ic",
        "le"
      ],
      [
        "ur",
        "face"
      ],
      [
        "eop",
        "le"
      ],
      [
        "a",
        "ir"
      ],
      [
        "b",
        "ility"
      ],
      [
        "on",
        "ight"
      ],
      [
        "ro",
        "ve"
      ],
      [
        "ot",
        "al"
      ],
      [
        "du",
        "ce"
      ],
      [
        "a",
        "ff"
      ],
      [
        "r",
        "ive"
      ],
      [
        "ou",
        "ther"
      ],
      [
        "ec",
        "ific"
      ],
      [
        "ong",
        "ress"
      ],
      [
        "outher",
        "n"
      ],
      [
        "o",
        "id"
      ],
      [
        "a",
        "z"
      ],
      [
        "em",
        "ory"
      ],
      [
        "ag",
        "az"
      ],
      [
        "ssion",
        "al"
      ],
      [
        "ip",
        "ant"
      ],
      [
        "agaz",
        "ine"
      ],
      [
        "c",
        "y"
      ],
      [
        "p",
        "ital"
      ],
      [
        "s",
        "o"
      ],
      [
        "s",
        "ure"
      ],
      [
        "in",
        "ner"
      ],
      [
        "en",
        "cy"
      ],
      [
        "ea",
        "sure"
      ],
      [
        "e",
        "p"
      ],
      [
        "f",
        "le"
      ],
      [
        "an",
        "cial"
      ],
      [
        "ud",
        "ience"
      ],
      [
        "ail",
        "able"
      ],
      [
        "fle",
        "ct"
      ],
      [
        "u",
        "ct"
      ],
      [
        "er",
        "a"
      ],
      [
        "uct",
        "ure"
      ],
      [
        "g",
        "ue"
      ],
      [
        "i",
        "ble"
      ],
      [
        "y",
        "e"
      ],
      [
        "ou",
        "ple"
      ],
      [
        "ss",
        "ible"
      ],
      [
        "is",
        "k"
      ],
      [
        "ĠC",
        "h"
      ],
      [
        "ĠD",
        "emocrat"
      ],
      [
        "vi",
        "ew"
      ],
      [
        "a",
        "vel"
      ],
      [
        "f",
        "ul"
      ],
      [
        "Ġ",
        "Y"
      ],
      [
        "ic",
        "y"
      ],
      [
        "ss",
        "um"
      ],
      [
        "ir",
        "l"
      ],
      [
        "us",
        "ic"
      ],
      [
        "ssum",
        "e"
      ],
      [
        "la",
        "im"
      ],
      [
        "n",
        "ol"
      ],
      [
        "o",
        "gy"
      ],
      [
        "p",
        "e"
      ],
      [
        "s",
        "u"
      ],
      [
        "y",
        "pe"
      ],
      [
        "ch",
        "nol"
      ],
      [
        "ea",
        "h"
      ],
      [
        "ea",
        "ce"
      ],
      [
        "oun",
        "g"
      ],
      [
        "ag",
        "ine"
      ],
      [
        "su",
        "mer"
      ],
      [
        "chnol",
        "ogy"
      ],
      [
        "c",
        "ation"
      ],
      [
        "p",
        "s"
      ],
      [
        "ou",
        "se"
      ],
      [
        "ss",
        "age"
      ],
      [
        "act",
        "ly"
      ],
      [
        "are",
        "nt"
      ],
      [
        "du",
        "cation"
      ],
      [
        "jo",
        "y"
      ],
      [
        "ha",
        "ps"
      ],
      [
        "ublic",
        "an"
      ],
      [
        "d",
        "ical"
      ],
      [
        "r",
        "al"
      ],
      [
        "ur",
        "ity"
      ],
      [
        "ut",
        "ure"
      ],
      [
        "c",
        "ri"
      ],
      [
        "l",
        "ain"
      ],
      [
        "v",
        "ice"
      ],
      [
        "w",
        "o"
      ],
      [
        "er",
        "m"
      ],
      [
        "us",
        "ine"
      ],
      [
        "sp",
        "ite"
      ],
      [
        "ys",
        "ical"
      ],
      [
        "cri",
        "be"
      ],
      [
        "usine",
        "ss"
      ],
      [
        "s",
        "w"
      ],
      [
        "v",
        "ol"
      ],
      [
        "ge",
        "ther"
      ],
      [
        "ul",
        "ation"
      ],
      [
        "cc",
        "ur"
      ],
      [
        "sw",
        "er"
      ],
      [
        "vol",
        "ve"
      ],
      [
        "g",
        "u"
      ],
      [
        "t",
        "ure"
      ],
      [
        "on",
        "th"
      ],
      [
        "in",
        "ut"
      ],
      [
        "an",
        "gu"
      ],
      [
        "ic",
        "ture"
      ],
      [
        "im",
        "al"
      ],
      [
        "is",
        "it"
      ],
      [
        "inut",
        "e"
      ],
      [
        "angu",
        "age"
      ],
      [
        "u",
        "le"
      ],
      [
        "y",
        "st"
      ],
      [
        "ent",
        "if"
      ],
      [
        "ic",
        "s"
      ],
      [
        "ow",
        "er"
      ],
      [
        "rea",
        "k"
      ],
      [
        "yst",
        "em"
      ],
      [
        "entif",
        "y"
      ],
      [
        "h",
        "ind"
      ],
      [
        "m",
        "ost"
      ],
      [
        "ol",
        "low"
      ],
      [
        "am",
        "ple"
      ],
      [
        "one",
        "y"
      ],
      [
        "per",
        "ty"
      ],
      [
        "sid",
        "er"
      ],
      [
        "i",
        "ent"
      ],
      [
        "y",
        "ee"
      ],
      [
        "Ġ",
        "U"
      ],
      [
        "sp",
        "aper"
      ],
      [
        "ie",
        "s"
      ],
      [
        "lo",
        "yee"
      ],
      [
        "ord",
        "ing"
      ],
      [
        "mp",
        "loyee"
      ],
      [
        "ient",
        "ist"
      ],
      [
        "q",
        "u"
      ],
      [
        "re",
        "et"
      ],
      [
        "st",
        "ry"
      ],
      [
        "ate",
        "gy"
      ],
      [
        "ist",
        "er"
      ],
      [
        "du",
        "stry"
      ],
      [
        "la",
        "ce"
      ],
      [
        "um",
        "ber"
      ],
      [
        "ater",
        "ial"
      ],
      [
        "qu",
        "ire"
      ],
      [
        "in",
        "k"
      ],
      [
        "Ġb",
        "lack"
      ],
      [
        "ss",
        "or"
      ],
      [
        "ig",
        "ure"
      ],
      [
        "oc",
        "al"
      ],
      [
        "sp",
        "ecial"
      ],
      [
        "ect",
        "ion"
      ],
      [
        "di",
        "a"
      ],
      [
        "special",
        "ly"
      ],
      [
        "f",
        "er"
      ],
      [
        "on",
        "der"
      ],
      [
        "ro",
        "ther"
      ],
      [
        "Ġex",
        "ecutive"
      ],
      [
        "ag",
        "er"
      ],
      [
        "Ġwor",
        "ld"
      ],
      [
        "ever",
        "al"
      ],
      [
        "rea",
        "se"
      ],
      [
        "pport",
        "unity"
      ],
      [
        "sid",
        "ent"
      ],
      [
        "fer",
        "ence"
      ],
      [
        "g",
        "an"
      ],
      [
        "r",
        "ime"
      ],
      [
        "ain",
        "ing"
      ],
      [
        "ort",
        "ant"
      ],
      [
        "iz",
        "ation"
      ],
      [
        "orn",
        "ing"
      ],
      [
        "ha",
        "vi"
      ],
      [
        "gan",
        "ization"
      ],
      [
        "havi",
        "or"
      ],
      [
        "f",
        "ore"
      ],
      [
        "i",
        "ew"
      ],
      [
        "st",
        "ment"
      ],
      [
        "ve",
        "s"
      ],
      [
        "ve",
        "stment"
      ],
      [
        "sel",
        "ves"
      ],
      [
        "way",
        "s"
      ],
      [
        "Ġoffic",
        "ial"
      ],
      [
        "ffic",
        "ult"
      ],
      [
        "e",
        "ther"
      ],
      [
        "al",
        "f"
      ],
      [
        "it",
        "iz"
      ],
      [
        "el",
        "ie"
      ],
      [
        "op",
        "e"
      ],
      [
        "act",
        "ice"
      ],
      [
        "cess",
        "ary"
      ],
      [
        "atter",
        "n"
      ],
      [
        "iv",
        "il"
      ],
      [
        "itiz",
        "en"
      ],
      [
        "elie",
        "ve"
      ],
      [
        "g",
        "r"
      ],
      [
        "v",
        "ie"
      ],
      [
        "w",
        "ard"
      ],
      [
        "re",
        "en"
      ],
      [
        "al",
        "ue"
      ],
      [
        "ar",
        "ious"
      ],
      [
        "id",
        "ate"
      ],
      [
        "ist",
        "ory"
      ],
      [
        "and",
        "idate"
      ],
      [
        "ous",
        "and"
      ],
      [
        "ific",
        "ant"
      ],
      [
        "ft",
        "en"
      ],
      [
        "gr",
        "am"
      ],
      [
        "a",
        "ign"
      ],
      [
        "b",
        "ab"
      ],
      [
        "c",
        "ern"
      ],
      [
        "p",
        "aign"
      ],
      [
        "in",
        "t"
      ],
      [
        "Ġc",
        "atch"
      ],
      [
        "at",
        "a"
      ],
      [
        "ur",
        "ch"
      ],
      [
        "ard",
        "en"
      ],
      [
        "us",
        "h"
      ],
      [
        "bab",
        "ly"
      ],
      [
        "d",
        "le"
      ],
      [
        "e",
        "en"
      ],
      [
        "f",
        "ter"
      ],
      [
        "i",
        "or"
      ],
      [
        "Ġs",
        "ix"
      ]
    ]
  }
}